<unk>	0
<s>	0
</s>	0
<|user|>	0
<|assistant|>	0
<|end|>	0
<0x00>	0
<0x01>	0
<0x02>	0
<0x03>	0
<0x04>	0
<0x05>	0
<0x06>	0
<0x07>	0
<0x08>	0
<0x09>	0
<0x0A>	0
<0x0B>	0
<0x0C>	0
<0x0D>	0
<0x0E>	0
<0x0F>	0
<0x10>	0
<0x11>	0
<0x12>	0
<0x13>	0
<0x14>	0
<0x15>	0
<0x16>	0
<0x17>	0
<0x18>	0
<0x19>	0
<0x1A>	0
<0x1B>	0
<0x1C>	0
<0x1D>	0
<0x1E>	0
<0x1F>	0
<0x20>	0
<0x21>	0
<0x22>	0
<0x23>	0
<0x24>	0
<0x25>	0
<0x26>	0
<0x27>	0
<0x28>	0
<0x29>	0
<0x2A>	0
<0x2B>	0
<0x2C>	0
<0x2D>	0
<0x2E>	0
<0x2F>	0
<0x30>	0
<0x31>	0
<0x32>	0
<0x33>	0
<0x34>	0
<0x35>	0
<0x36>	0
<0x37>	0
<0x38>	0
<0x39>	0
<0x3A>	0
<0x3B>	0
<0x3C>	0
<0x3D>	0
<0x3E>	0
<0x3F>	0
<0x40>	0
<0x41>	0
<0x42>	0
<0x43>	0
<0x44>	0
<0x45>	0
<0x46>	0
<0x47>	0
<0x48>	0
<0x49>	0
<0x4A>	0
<0x4B>	0
<0x4C>	0
<0x4D>	0
<0x4E>	0
<0x4F>	0
<0x50>	0
<0x51>	0
<0x52>	0
<0x53>	0
<0x54>	0
<0x55>	0
<0x56>	0
<0x57>	0
<0x58>	0
<0x59>	0
<0x5A>	0
<0x5B>	0
<0x5C>	0
<0x5D>	0
<0x5E>	0
<0x5F>	0
<0x60>	0
<0x61>	0
<0x62>	0
<0x63>	0
<0x64>	0
<0x65>	0
<0x66>	0
<0x67>	0
<0x68>	0
<0x69>	0
<0x6A>	0
<0x6B>	0
<0x6C>	0
<0x6D>	0
<0x6E>	0
<0x6F>	0
<0x70>	0
<0x71>	0
<0x72>	0
<0x73>	0
<0x74>	0
<0x75>	0
<0x76>	0
<0x77>	0
<0x78>	0
<0x79>	0
<0x7A>	0
<0x7B>	0
<0x7C>	0
<0x7D>	0
<0x7E>	0
<0x7F>	0
<0x80>	0
<0x81>	0
<0x82>	0
<0x83>	0
<0x84>	0
<0x85>	0
<0x86>	0
<0x87>	0
<0x88>	0
<0x89>	0
<0x8A>	0
<0x8B>	0
<0x8C>	0
<0x8D>	0
<0x8E>	0
<0x8F>	0
<0x90>	0
<0x91>	0
<0x92>	0
<0x93>	0
<0x94>	0
<0x95>	0
<0x96>	0
<0x97>	0
<0x98>	0
<0x99>	0
<0x9A>	0
<0x9B>	0
<0x9C>	0
<0x9D>	0
<0x9E>	0
<0x9F>	0
<0xA0>	0
<0xA1>	0
<0xA2>	0
<0xA3>	0
<0xA4>	0
<0xA5>	0
<0xA6>	0
<0xA7>	0
<0xA8>	0
<0xA9>	0
<0xAA>	0
<0xAB>	0
<0xAC>	0
<0xAD>	0
<0xAE>	0
<0xAF>	0
<0xB0>	0
<0xB1>	0
<0xB2>	0
<0xB3>	0
<0xB4>	0
<0xB5>	0
<0xB6>	0
<0xB7>	0
<0xB8>	0
<0xB9>	0
<0xBA>	0
<0xBB>	0
<0xBC>	0
<0xBD>	0
<0xBE>	0
<0xBF>	0
<0xC0>	0
<0xC1>	0
<0xC2>	0
<0xC3>	0
<0xC4>	0
<0xC5>	0
<0xC6>	0
<0xC7>	0
<0xC8>	0
<0xC9>	0
<0xCA>	0
<0xCB>	0
<0xCC>	0
<0xCD>	0
<0xCE>	0
<0xCF>	0
<0xD0>	0
<0xD1>	0
<0xD2>	0
<0xD3>	0
<0xD4>	0
<0xD5>	0
<0xD6>	0
<0xD7>	0
<0xD8>	0
<0xD9>	0
<0xDA>	0
<0xDB>	0
<0xDC>	0
<0xDD>	0
<0xDE>	0
<0xDF>	0
<0xE0>	0
<0xE1>	0
<0xE2>	0
<0xE3>	0
<0xE4>	0
<0xE5>	0
<0xE6>	0
<0xE7>	0
<0xE8>	0
<0xE9>	0
<0xEA>	0
<0xEB>	0
<0xEC>	0
<0xED>	0
<0xEE>	0
<0xEF>	0
<0xF0>	0
<0xF1>	0
<0xF2>	0
<0xF3>	0
<0xF4>	0
<0xF5>	0
<0xF6>	0
<0xF7>	0
<0xF8>	0
<0xF9>	0
<0xFA>	0
<0xFB>	0
<0xFC>	0
<0xFD>	0
<0xFE>	0
<0xFF>	0
න්	-0
▁ක	-1
an	-2
▁ම	-3
ක්	-4
▁ව	-5
▁ස	-6
▁t	-7
in	-8
්‍	-9
▁ප	-10
ිය	-11
්‍ර	-12
er	-13
න්න	-14
▁අ	-15
▁a	-16
at	-17
▁ද	-18
▁හ	-19
is	-20
▁c	-21
he	-22
▁එ	-23
ou	-24
▁w	-25
▁ල	-26
ත්	-27
▁an	-28
on	-29
යි	-30
▁ග	-31
ing	-32
or	-33
ාව	-34
ar	-35
▁A	-36
▁m	-37
▁න	-38
▁l	-39
▁ඔ	-40
es	-41
it	-42
▁I	-43
▁ත	-44
al	-45
▁b	-46
▁p	-47
hat	-48
ර්	-49
ෙන	-50
▁y	-51
කක්	-52
▁AI	-53
▁is	-54
▁to	-55
▁and	-56
el	-57
▁ආ	-58
▁you	-59
ීම	-60
▁s	-61
▁ඉ	-62
▁බ	-63
▁කර	-64
re	-65
සි	-66
ුව	-67
▁f	-68
▁මො	-69
▁සහ	-70
ංක	-71
▁in	-72
od	-73
ුර	-74
▁S	-75
am	-76
en	-77
ින්	-78
▁ලංක	-79
වා	-80
▁R	-81
▁h	-82
▁ශ	-83
්‍රී	-84
▁the	-85
et	-86
ස්	-87
▁d	-88
▁උ	-89
▁ඔබ	-90
තා	-91
ැන	-92
▁භ	-93
ers	-94
▁කිය	-95
යා	-96
▁n	-97
ෙන්	-98
ri	-99
ti	-100
කය	-101
රි	-102
ල්	-103
ික	-104
ුද	-105
▁o	-106
▁ර	-107
▁RS	-108
▁he	-109
▁එය	-110
▁මම	-111
▁කරන්න	-112
le	-113
ur	-114
▁මට	-115
කක්ද	-116
▁hel	-117
▁ඔබට	-118
▁what	-119
▁කියන්න	-120
ay	-121
us	-122
කි	-123
ණය	-124
ති	-125
මා	-126
යේ	-127
ාෂ	-128
▁T	-129
▁ය	-130
▁දෙ	-131
▁වි	-132
▁සි	-133
▁භාෂ	-134
▁help	-135
▁ලංකාව	-136
▁ශ්‍රී	-137
▁මොකක්ද	-138
as	-139
ch	-140
ed	-141
ig	-142
om	-143
ම්	-144
හල	-145
ear	-146
▁ආක	-147
▁උද	-148
▁වල	-149
▁වේ	-150
ත්‍ර	-151
▁කතා	-152
▁ප්‍ර	-153
ag	-154
th	-155
නය	-156
ුළ	-157
ත්ත	-158
▁නි	-159
▁හැ	-160
ුවන්	-161
▁පුළ	-162
▁පුළුවන්	-163
lo	-164
ro	-165
ඩා	-166
නු	-167
ව්	-168
්ධ	-169
ිර	-170
▁g	-171
ion	-172
▁of	-173
▁can	-174
▁ගැන	-175
▁එකක්	-176
▁ලංකාවේ	-177
gu	-178
qu	-179
ts	-180
un	-181
ගේ	-182
ලෝ	-183
හි	-184
ොඳ	-185
ොහ	-186
▁H	-187
▁P	-188
▁e	-189
age	-190
ank	-191
ere	-192
ංහල	-193
නවා	-194
ීමට	-195
▁me	-196
▁කු	-197
angu	-198
odel	-199
▁are	-200
▁හොඳ	-201
▁උදව්	-202
▁langu	-203
▁model	-204
▁සිංහල	-205
▁කියන්නේ	-206
ci	-207
il	-208
ke	-209
ul	-210
ංග	-211
ඕන	-212
ජන	-213
ටි	-214
නව	-215
මු	-216
වස	-217
ිත	-218
ීය	-219
▁L	-220
▁M	-221
▁W	-222
▁ඇ	-223
▁—	-224
ell	-225
ent	-226
ith	-227
ood	-228
තිය	-229
්‍ය	-230
▁as	-231
▁be	-232
▁ne	-233
▁te	-234
▁ඉග	-235
▁ඕන	-236
▁පර	-237
earn	-238
▁Sri	-239
▁ආකෘ	-240
▁ඔයා	-241
▁with	-242
▁ක්‍ර	-243
▁ගන්න	-244
▁ලංකා	-245
▁learn	-246
▁භාෂාව	-247
▁language	-248
ac	-249
ap	-250
ce	-251
ly	-252
os	-253
ow	-254
ut	-255
රය	-256
ලා	-257
සා	-258
ින	-259
ිබ	-260
ිම	-261
ෙස	-262
ොම	-263
ෝක	-264
▁E	-265
▁ඒ	-266
erf	-267
ike	-268
ons	-269
orm	-270
sis	-271
tan	-272
yth	-273
මක්	-274
▁th	-275
▁wh	-276
▁වැ	-277
▁සූ	-278
amet	-279
යෙන්	-280
▁කීය	-281
▁තිබ	-282
▁දවස	-283
▁යනු	-284
▁හරි	-285
▁Lank	-286
▁like	-287
▁that	-288
aramet	-289
▁වලින්	-290
av	-291
ep	-292
gl	-293
im	-294
ot	-295
pp	-296
ණු	-297
තු	-298
ලට	-299
ලේ	-300
ශ්	-301
සන	-302
සු	-303
හා	-304
ාශ	-305
ීර	-306
ුභ	-307
etw	-308
igh	-309
lan	-310
ork	-311
put	-312
නුව	-313
ෂණය	-314
ැනි	-315
ියි	-316
ුරු	-317
ෙක්	-318
▁It	-319
▁by	-320
▁do	-321
▁it	-322
▁or	-323
▁qu	-324
▁tr	-325
▁අද	-326
▁අප	-327
▁අව	-328
▁එක	-329
▁ක්	-330
▁කෘ	-331
▁පි	-332
▁සා	-333
king	-334
reat	-335
ural	-336
කින්	-337
ලෝකය	-338
ියෙන	-339
ුද්ධ	-340
ොහොම	-341
▁com	-342
▁for	-343
▁pro	-344
▁ඉංග	-345
▁කිර	-346
▁පරි	-347
▁ලෙස	-348
▁වර්	-349
▁වැඩ	-350
▁සුභ	-351
tions	-352
ython	-353
▁netw	-354
▁තිබේ	-355
▁භාෂා	-356
්‍රීසි	-357
▁Lanka	-358
▁තියෙන	-359
▁බුද්ධ	-360
▁Python	-361
▁ආකෘතිය	-362
▁network	-363
▁paramet	-364
▁ඉංග්‍රීසි	-365
ad	-366
ec	-367
gr	-368
ic	-369
id	-370
ld	-371
lu	-372
ol	-373
කට	-374
ගණ	-375
ට්	-376
දී	-377
මණ	-378
යු	-379
වි	-380
ැම	-381
▁C	-382
▁G	-383
▁K	-384
ach	-385
ain	-386
ala	-387
all	-388
are	-389
att	-390
ave	-391
eel	-392
ern	-393
ess	-394
ind	-395
ine	-396
inh	-397
iri	-398
ish	-399
ngl	-400
one	-401
out	-402
use	-403
ද්ධ	-404
නම්	-405
නික	-406
ලිය	-407
ිනි	-408
ුරා	-409
▁al	-410
▁re	-411
▁අහ	-412
▁කව	-413
▁කළ	-414
▁තා	-415
▁තේ	-416
▁නැ	-417
▁මු	-418
▁යි	-419
▁රට	-420
▁සම	-421
▁ස්	-422
▁හද	-423
form	-424
tant	-425
හිටි	-426
▁The	-427
▁day	-428
▁int	-429
▁mor	-430
▁ඔබේ	-431
▁ගෙන	-432
▁පමණ	-433
▁භාව	-434
▁මගේ	-435
▁ලෝක	-436
▁වඩා	-437
▁වෙන	-438
▁හැක	-439
ation	-440
cient	-441
සිද්ධ	-442
ොහොමද	-443
▁Engl	-444
▁Sinh	-445
▁chat	-446
▁plan	-447
▁team	-448
▁your	-449
▁ඉගෙන	-450
▁උත්ත	-451
▁කීයද	-452
▁දත්ත	-453
▁නිල්	-454
▁පරමා	-455
▁මිනි	-456
▁වැඩි	-457
▁වැනි	-458
▁සූර්	-459
ත්‍රිම	-460
▁assis	-461
▁කිරීම	-462
▁පරිගණ	-463
▁මොනවා	-464
estions	-465
▁කොහොමද	-466
▁ප්‍රශ්	-467
▁English	-468
▁Sinhala	-469
▁බුද්ධිය	-470
▁learning	-471
▁කෘත්‍රිම	-472
▁ප්‍රසිද්ධ	-473
fi	-474
gy	-475
ir	-476
nt	-477
og	-478
op	-479
st	-480
xp	-481
ya	-482
ගර	-483
ටම	-484
ණි	-485
තර	-486
ප්	-487
පු	-488
රු	-489
රේ	-490
ලය	-491
වත	-492
වේ	-493
හැ	-494
ාම	-495
ාය	-496
ීග	-497
ුන	-498
ූප	-499
▁J	-500
▁N	-501
▁k	-502
▁ජ	-503
amm	-504
ans	-505
ard	-506
ful	-507
ide	-508
ill	-509
ity	-510
low	-511
lue	-512
olo	-513
ome	-514
ose	-515
our	-516
ous	-517
rit	-518
uil	-519
ust	-520
ver	-521
තුර	-522
න්ට	-523
න්ද	-524
පුර	-525
රණය	-526
ර්ණ	-527
වක්	-528
වත්	-529
වලට	-530
ිතා	-531
ිතී	-532
ොහෝ	-533
▁Th	-534
▁ab	-535
▁de	-536
▁sc	-537
▁අග	-538
▁ආග	-539
▁ආද	-540
▁ඇට	-541
▁ගැ	-542
▁ජන	-543
▁පා	-544
▁පැ	-545
▁බි	-546
▁මේ	-547
▁වා	-548
▁වෙ	-549
▁ශර	-550
▁හෙ	-551
▁හෝ	-552
apit	-553
cess	-554
cial	-555
ence	-556
ight	-557
imes	-558
indu	-559
ware	-560
කයක්	-561
ර්මා	-562
ලින්	-563
ලෙක්	-564
ස්සන	-565
සින්	-566
්‍යා	-567
ැමති	-568
ිකට්	-569
ියක්	-570
ියාව	-571
ුරුද	-572
ෙන්ම	-573
▁Rus	-574
▁Sig	-575
▁app	-576
▁exp	-577
▁fam	-578
▁how	-579
▁its	-580
▁tas	-581
▁use	-582
▁whi	-583
▁ඉගන	-584
▁එක්	-585
▁එහි	-586
▁තීර	-587
▁වීම	-588
▁වේග	-589
▁සිත	-590
▁සීග	-591
aking	-592
ellig	-593
erful	-594
gramm	-595
iriya	-596
ක්ෂණය	-597
ත්‍රය	-598
ාමිතී	-599
▁blue	-600
▁buil	-601
▁feel	-602
▁good	-603
▁have	-604
▁here	-605
▁need	-606
▁perf	-607
▁writ	-608
▁අනුව	-609
▁ඉන්න	-610
▁නිසා	-611
▁පුරා	-612
▁බොහෝ	-613
▁මමත්	-614
▁වතුර	-615
achine	-616
apital	-617
illion	-618
reated	-619
▁about	-620
▁scatt	-621
▁ආලෝකය	-622
▁උත්තර	-623
▁ඔයාගේ	-624
▁කැමති	-625
▁කුමක්	-626
▁දෙන්න	-627
▁ලස්සන	-628
▁හොඳයි	-629
ාමිතීන්	-630
▁comput	-631
▁famous	-632
▁neural	-633
▁අවුරුද	-634
▁ගැනීමට	-635
▁පිහිටි	-636
▁භාවිතා	-637
▁Rusindu	-638
▁ancient	-639
▁capital	-640
▁created	-641
▁process	-642
▁writing	-643
▁උදව්වක්	-644
▁තාක්ෂණය	-645
▁තියෙනවා	-646
elligence	-647
▁Sigiriya	-648
▁ආකෘතියක්	-649
▁ක්‍රිකට්	-650
▁assistant	-651
▁questions	-652
▁පරාමිතීන්	-653
▁පරිගණකයක්	-654
▁parameters	-655
aw	-656
bs	-657
by	-658
em	-659
ft	-660
gg	-661
iv	-662
iz	-663
ks	-664
ky	-665
ll	-666
nd	-667
se	-668
sw	-669
uc	-670
um	-671
ංශ	-672
කා	-673
ගහ	-674
ඡා	-675
ණ්	-676
තූ	-677
ථය	-678
ධා	-679
බහ	-680
බෝ	-681
මළ	-682
රණ	-683
රත	-684
ලු	-685
වද	-686
ශා	-687
සෙ	-688
්ද	-689
ාස	-690
ෑම	-691
ෘහ	-692
ොළ	-693
▁(	-694
▁+	-695
▁=	-696
▁U	-697
▁Y	-698
▁j	-699
▁r	-700
▁ට	-701
act	-702
ame	-703
any	-704
ays	-705
bye	-706
chn	-707
day	-708
ect	-709
est	-710
ets	-711
gis	-712
hot	-713
inn	-714
itt	-715
oft	-716
ond	-717
oog	-718
osy	-719
ott	-720
pic	-721
ran	-722
ree	-723
rti	-724
unl	-725
ura	-726
urp	-727
ury	-728
ංකී	-729
කකය	-730
ටන්	-731
ත්ව	-732
ධාන	-733
නවද	-734
නුෂ	-735
ඳහා	-736
බෝව	-737
මන්	-738
මික	-739
යක්	-740
යිඩ	-741
ර්ශ	-742
රීම	-743
ලයි	-744
ලයේ	-745
විධ	-746
විය	-747
ශාල	-748
සලා	-749
සාය	-750
සිර	-751
හාස	-752
ායක	-753
ාශය	-754
ැණි	-755
ෑසන	-756
ිරි	-757
ිරු	-758
ිස්	-759
ූලය	-760
ෙනා	-761
ේල්	-762
ෝකය	-763
▁My	-764
▁el	-765
▁le	-766
▁mo	-767
▁on	-768
▁pr	-769
▁ro	-770
▁sp	-771
▁su	-772
▁we	-773
▁අන	-774
▁අභ	-775
▁අර	-776
▁කට	-777
▁ගණ	-778
▁ජය	-779
▁දු	-780
▁දේ	-781
▁නට	-782
▁නම	-783
▁බල	-784
▁මත	-785
▁මෙ	-786
▁රා	-787
▁ලේ	-788
▁වන	-789
▁වී	-790
▁හි	-791
ages	-792
ally	-793
ding	-794
ears	-795
ings	-796
lain	-797
mall	-798
ning	-799
nthe	-800
omet	-801
oney	-802
orld	-803
ound	-804
swer	-805
till	-806
uman	-807
ways	-808
ක්සි	-809
ගන්න	-810
ගරයේ	-811
ගහනය	-812
ග්‍ර	-813
තියි	-814
ද්‍ය	-815
නයක්	-816
නයකි	-817
නවලට	-818
නුවර	-819
මානව	-820
මුත්	-821
රයයි	-822
ර්ථය	-823
ලියන	-824
ලුත්	-825
සෙමු	-826
හලෝක	-827
ියන්	-828
ිරිය	-829
ීරයේ	-830
ුදල්	-831
ූපත්	-832
▁How	-833
▁Pro	-834
▁You	-835
▁any	-836
▁cod	-837
▁con	-838
▁don	-839
▁ins	-840
▁run	-841
▁sky	-842
▁tal	-843
▁was	-844
▁who	-845
▁අංශ	-846
▁අපි	-847
▁ආකා	-848
▁ආයු	-849
▁ඇති	-850
▁ඉති	-851
▁කෑම	-852
▁ටික	-853
▁දැන	-854
▁දින	-855
▁නම්	-856
▁පිය	-857
▁මාව	-858
▁මුණ	-859
▁මොන	-860
▁යන්	-861
▁රටා	-862
▁ලිය	-863
▁වලට	-864
▁ස්ථ	-865
▁සිය	-866
▁හලෝ	-867
▁හැම	-868
▁හෙට	-869
ernet	-870
ittle	-871
ology	-872
oogle	-873
rtifi	-874
ග්‍රහ	-875
බෝවන්	-876
ලෙක්ද	-877
ලේෂණය	-878
සලානය	-879
සුන්ට	-880
්‍යාප	-881
ැණික්	-882
ෑසනක්	-883
▁Good	-884
▁What	-885
▁cour	-886
▁deep	-887
▁fact	-888
▁food	-889
▁free	-890
▁just	-891
▁many	-892
▁more	-893
▁name	-894
▁purp	-895
▁requ	-896
▁sunl	-897
▁tell	-898
▁wond	-899
▁ඉන්ද	-900
▁එනම්	-901
▁ඒකකය	-902
▁ඔයාට	-903
▁කරයි	-904
▁කවුද	-905
▁කුඩා	-906
▁ග්‍ර	-907
▁තීරණ	-908
▁දෙමළ	-909
▁දෙයි	-910
▁නායක	-911
▁නැහැ	-912
▁පටන්	-913
▁මනුෂ	-914
▁මූලය	-915
▁රටකි	-916
▁රසාය	-917
▁ලෝකය	-918
▁වර්ග	-919
▁සංකී	-920
▁සඳහා	-921
▁ස්තූ	-922
▁හදපු	-923
▁හොඳද	-924
former	-925
hotosy	-926
ක්සිජන	-927
යාලෝකය	-928
ර්මාණය	-929
්‍රේල්	-930
▁There	-931
▁World	-932
▁allow	-933
▁build	-934
▁human	-935
▁still	-936
▁tasks	-937
▁thank	-938
▁times	-939
▁today	-940
▁trans	-941
▁while	-942
▁අලුත්	-943
▁අහන්න	-944
▁ආකාශය	-945
▁ආකෘති	-946
▁ආගමික	-947
▁කතාබහ	-948
▁කරනවා	-949
▁කියලා	-950
▁කීයක්	-951
▁තේරීම	-952
▁දවසක්	-953
▁දූපත්	-954
▁නමුත්	-955
▁පුරාණ	-956
▁මුදල්	-957
▁මොනවද	-958
▁වතුරේ	-959
▁විවිධ	-960
▁විශාල	-961
▁සමානව	-962
▁සූර්ය	-963
nthesis	-964
oftware	-965
▁always	-966
▁answer	-967
▁inform	-968
▁little	-969
▁making	-970
▁models	-971
▁අගනුවර	-972
▁ඉතිහාස	-973
▁ඉන්නවා	-974
▁කුමක්ද	-975
▁ගැසෙමු	-976
▁ජනගහනය	-977
▁පරමාණු	-978
▁මැණික්	-979
▁මිනිස්	-980
▁රාත්‍ර	-981
▁ශරීරයේ	-982
▁සාගරයේ	-983
▁සිතීමට	-984
▁හැකියි	-985
chnology	-986
gramming	-987
▁billion	-988
▁explain	-989
▁machine	-990
▁morning	-991
▁perform	-992
▁planets	-993
▁purpose	-994
▁උදෑසනක්	-995
▁ඔක්සිජන	-996
▁කුසලානය	-997
▁තියෙනවද	-998
▁ප්‍රධාන	-999
▁මනුෂ්‍ය	-1000
▁රසායනික	-1001
▁සංකීර්ණ	-1002
▁සීගිරිය	-1003
▁සූත්‍රය	-1004
▁හැකියාව	-1005
rtificial	-1006
▁internet	-1007
▁scatters	-1008
▁sunlight	-1009
▁අප්‍රේල්	-1010
▁අවුරුද්ද	-1011
▁ආයුබෝවන්	-1012
▁ඉන්දියන්	-1013
▁ග්‍රහලෝක	-1014
▁නිර්මාණය	-1015
▁පරමාර්ථය	-1016
▁පුළුවන්ද	-1017
▁ස්තූතියි	-1018
▁computers	-1019
▁parameter	-1020
▁wonderful	-1021
▁භාෂාවකින්	-1022
▁මිනිසුන්ට	-1023
▁ප්‍රශ්නවලට	-1024
▁රාත්‍රියක්	-1025
▁සූර්යාලෝකය	-1026
▁information	-1027
▁transformer	-1028
▁ප්‍රසිද්ධයි	-1029
hotosynthesis	-1030
▁intelligence	-1031
CC	-1032
CO	-1033
ES	-1034
GP	-1035
KR	-1036
Le	-1037
Of	-1038
PU	-1039
ab	-1040
ae	-1041
ak	-1042
au	-1043
bo	-1044
ca	-1045
ck	-1046
co	-1047
eb	-1048
ey	-1049
hl	-1050
hy	-1051
ib	-1052
if	-1053
io	-1054
me	-1055
ph	-1056
ry	-1057
tm	-1058
tr	-1059
ty	-1060
up	-1061
xy	-1062
ඉග	-1063
කච	-1064
කස	-1065
කො	-1066
කෝ	-1067
ඛන	-1068
ග්	-1069
ගෝ	-1070
ඟහ	-1071
චූ	-1072
ජු	-1073
ටර	-1074
ටා	-1075
ටේ	-1076
ඩය	-1077
ඩෝ	-1078
තම	-1079
ථි	-1080
දද	-1081
දා	-1082
දි	-1083
ධන	-1084
නග	-1085
නි	-1086
ඳු	-1087
පය	-1088
පූ	-1089
බළ	-1090
බ්	-1091
බා	-1092
මන	-1093
මී	-1094
ඹු	-1095
යම	-1096
යෙ	-1097
රන	-1098
රම	-1099
රල	-1100
රළ	-1101
ලව	-1102
ලි	-1103
වක	-1104
වර	-1105
වල	-1106
වු	-1107
ෂේ	-1108
සේ	-1109
හර	-1110
හු	-1111
හෙ	-1112
ළි	-1113
ාක	-1114
ාබ	-1115
ාහ	-1116
ෑද	-1117
ිහ	-1118
ුධ	-1119
ුප	-1120
ේද	-1121
ේන	-1122
ොඩ	-1123
ෝන	-1124
ෞර	-1125
‍ය	-1126
▁B	-1127
▁F	-1128
▁V	-1129
▁×	-1130
GPT	-1131
Lee	-1132
NES	-1133
PUs	-1134
abl	-1135
ack	-1136
acy	-1137
adh	-1138
ady	-1139
ake	-1140
als	-1141
apa	-1142
app	-1143
arb	-1144
arg	-1145
ars	-1146
art	-1147
asi	-1148
ast	-1149
ata	-1150
ath	-1151
ava	-1152
bal	-1153
bas	-1154
clu	-1155
cog	-1156
cul	-1157
dly	-1158
elc	-1159
elf	-1160
ens	-1161
eph	-1162
ept	-1163
erc	-1164
eyl	-1165
ffi	-1166
fri	-1167
gen	-1168
gry	-1169
gyp	-1170
hes	-1171
ick	-1172
ies	-1173
ils	-1174
iod	-1175
iox	-1176
ire	-1177
irr	-1178
ist	-1179
ite	-1180
ive	-1181
jec	-1182
kay	-1183
ken	-1184
las	-1185
lat	-1186
led	-1187
lex	-1188
lin	-1189
mbs	-1190
mer	-1191
niz	-1192
nur	-1193
odu	-1194
ody	-1195
ope	-1196
opp	-1197
ore	-1198
ors	-1199
oth	-1200
ots	-1201
rch	-1202
res	-1203
riv	-1204
ruc	-1205
ses	-1206
und	-1207
▁	-1208
්	-1209
e	-1210
a	-1211
න	-1212
ක	-1213
ි	-1214
t	-1215
n	-1216
o	-1217
ය	-1218
i	-1219
ර	-1220
s	-1221
ව	-1222
ම	-1223
r	-1224
ා	-1225
l	-1226
ස	-1227
ත	-1228
ු	-1229
h	-1230
.	-1231
ද	-1232
ල	-1233
u	-1234
හ	-1235
,	-1236
d	-1237
ේ	-1238
ට	-1239
m	-1240
g	-1241
c	-1242
ප	-1243
y	-1244
ග	-1245
p	-1246
ෙ	-1247
ී	-1248
‍	-1249
?	-1250
w	-1251
f	-1252
බ	-1253
ො	-1254
I	-1255
ැ	-1256
අ	-1257
ණ	-1258
b	-1259
k	-1260
ං	-1261
එ	-1262
S	-1263
ශ	-1264
A	-1265
ෝ	-1266
ඔ	-1267
ළ	-1268
0	-1269
ආ	-1270
ඉ	-1271
භ	-1272
ෂ	-1273
ඩ	-1274
1	-1275
!	-1276
R	-1277
ධ	-1278
උ	-1279
'	-1280
2	-1281
ෘ	-1282
v	-1283
ූ	-1284
T	-1285
ජ	-1286
ඳ	-1287
P	-1288
4	-1289
H	-1290
L	-1291
q	-1292
C	-1293
E	-1294
M	-1295
W	-1296
ඇ	-1297
ඕ	-1298
—	-1299
5	-1300
B	-1301
x	-1302
ඒ	-1303
ථ	-1304
G	-1305
K	-1306
ෑ	-1307
3	-1308
N	-1309
-	-1310
:	-1311
J	-1312
O	-1313
U	-1314
j	-1315
ඟ	-1316
ඹ	-1317
%	-1318
(	-1319
)	-1320
+	-1321
6	-1322
9	-1323
=	-1324
Y	-1325
z	-1326
ච	-1327
ඡ	-1328
8	-1329
D	-1330
F	-1331
V	-1332
×	-1333
ඛ	-1334
ඨ	-1335
ෛ	-1336
ෞ	-1337
